<pad>	0
<unk>	0
<s>	0
</s>	0
▁t	-0
he	-1
▁a	-2
in	-3
▁the	-4
er	-5
on	-6
▁,	-7
re	-8
▁s	-9
ed	-10
▁w	-11
▁o	-12
nd	-13
at	-14
▁.	-15
or	-16
en	-17
it	-18
▁c	-19
is	-20
es	-21
▁f	-22
ar	-23
▁b	-24
▁of	-25
an	-26
▁in	-27
al	-28
ing	-29
▁p	-30
▁and	-31
as	-32
▁to	-33
ic	-34
ro	-35
▁m	-36
▁d	-37
▁h	-38
ion	-39
le	-40
ou	-41
▁T	-42
▁=	-43
▁re	-44
▁S	-45
▁"	-46
▁A	-47
il	-48
ent	-49
▁th	-50
▁1	-51
st	-52
▁l	-53
el	-54
▁C	-55
▁e	-56
om	-57
▁n	-58
am	-59
▁@	-60
ad	-61
ac	-62
▁M	-63
▁was	-64
ec	-65
▁on	-66
ly	-67
▁The	-68
ur	-69
▁B	-70
et	-71
▁'	-72
▁g	-73
ol	-74
▁I	-75
id	-76
im	-77
iv	-78
▁for	-79
ir	-80
ot	-81
-@	-82
▁@-@	-83
ig	-84
ter	-85
▁H	-86
▁as	-87
us	-88
ut	-89
ow	-90
ith	-91
ay	-92
▁st	-93
▁2	-94
▁he	-95
ver	-96
▁that	-97
ation	-98
▁P	-99
▁be	-100
▁with	-101
▁D	-102
▁R	-103
ce	-104
un	-105
em	-106
▁wh	-107
▁is	-108
▁W	-109
th	-110
ul	-111
ch	-112
▁by	-113
▁F	-114
▁)	-115
▁(	-116
▁al	-117
▁con	-118
ct	-119
▁N	-120
ra	-121
▁L	-122
▁G	-123
▁at	-124
ers	-125
▁19	-126
os	-127
▁an	-128
▁it	-129
her	-130
rom	-131
▁J	-132
est	-133
um	-134
and	-135
▁his	-136
ag	-137
00	-138
av	-139
ri	-140
ain	-141
▁E	-142
od	-143
ist	-144
▁from	-145
▁O	-146
▁com	-147
▁v	-148
▁pro	-149
if	-150
op	-151
res	-152
ld	-153
ies	-154
ill	-155
ew	-156
▁su	-157
pp	-158
▁In	-159
ere	-160
▁r	-161
ort	-162
ore	-163
▁de	-164
ate	-165
igh	-166
▁se	-167
▁were	-168
ich	-169
all	-170
art	-171
ard	-172
ber	-173
ak	-174
ant	-175
ong	-176
▁or	-177
▁ex	-178
▁ch	-179
gh	-180
ud	-181
ab	-182
ear	-183
qu	-184
oc	-185
ess	-186
ity	-187
ated	-188
▁sh	-189
ame	-190
▁pl	-191
pt	-192
ive	-193
rou	-194
▁K	-195
▁had	-196
ect	-197
▁U	-198
▁are	-199
ack	-200
se	-201
red	-202
▁k	-203
ge	-204
▁which	-205
▁St	-206
ip	-207
ian	-208
▁sp	-209
ov	-210
▁le	-211
ast	-212
our	-213
▁not	-214
ment	-215
ell	-216
▁y	-217
rit	-218
ally	-219
ost	-220
ord	-221
ight	-222
ia	-223
ther	-224
ine	-225
▁u	-226
ary	-227
oun	-228
ave	-229
ust	-230
ap	-231
▁3	-232
▁Ch	-233
▁un	-234
▁200	-235
ish	-236
ous	-237
cc	-238
irst	-239
▁but	-240
og	-241
▁inc	-242
te	-243
fter	-244
ions	-245
ial	-246
▁;	-247
ould	-248
▁V	-249
ru	-250
ure	-251
▁comp	-252
▁whe	-253
▁their	-254
▁ar	-255
▁cont	-256
ok	-257
ide	-258
ical	-259
so	-260
▁first	-261
▁its	-262
▁He	-263
▁–	-264
per	-265
ub	-266
▁:	-267
▁her	-268
ign	-269
ie	-270
ff	-271
ue	-272
hed	-273
wo	-274
▁20	-275
▁int	-276
▁cl	-277
▁us	-278
ater	-279
ome	-280
ass	-281
ire	-282
ran	-283
▁ab	-284
ork	-285
▁also	-286
orm	-287
out	-288
▁res	-289
▁ad	-290
▁18	-291
own	-292
mer	-293
ry	-294
ond	-295
▁4	-296
▁one	-297
du	-298
▁have	-299
▁rec	-300
ime	-301
▁ro	-302
age	-303
▁Th	-304
▁who	-305
low	-306
ree	-307
▁per	-308
▁5	-309
ence	-310
▁sc	-311
.@	-312
▁@.@	-313
▁has	-314
pl	-315
▁been	-316
▁two	-317
ory	-318
iz	-319
ile	-320
ough	-321
ult	-322
▁bec	-323
uring	-324
▁this	-325
▁app	-326
▁dis	-327
▁year	-328
▁Al	-329
ition	-330
ations	-331
act	-332
ke	-333
are	-334
▁des	-335
▁part	-336
▁j	-337
ely	-338
▁they	-339
ric	-340
land	-341
▁ag	-342
▁It	-343
ach	-344
▁other	-345
ade	-346
▁man	-347
ction	-348
▁en	-349
ount	-350
▁play	-351
lud	-352
,@	-353
▁@,@	-354
▁ser	-355
ound	-356
▁over	-357
▁after	-358
▁Y	-359
▁201	-360
ib	-361
ice	-362
▁off	-363
urn	-364
over	-365
▁im	-366
ember	-367
ark	-368
wn	-369
ance	-370
▁out	-371
man	-372
ite	-373
ress	-374
ph	-375
ace	-376
▁up	-377
▁te	-378
▁includ	-379
▁pre	-380
▁time	-381
we	-382
rough	-383
ens	-384
▁Un	-385
ced	-386
ings	-387
les	-388
▁On	-389
▁into	-390
nder	-391
▁him	-392
▁ev	-393
▁would	-394
ward	-395
ey	-396
ors	-397
ang	-398
ind	-399
vel	-400
▁6	-401
▁she	-402
round	-403
ted	-404
▁att	-405
oin	-406
ild	-407
amp	-408
▁we	-409
▁more	-410
▁ne	-411
ren	-412
ates	-413
ied	-414
ited	-415
port	-416
▁all	-417
▁comm	-418
ase	-419
ased	-420
ts	-421
rib	-422
tern	-423
ose	-424
▁7	-425
ood	-426
oy	-427
ents	-428
end	-429
able	-430
ces	-431
ason	-432
att	-433
ilm	-434
iss	-435
ep	-436
▁work	-437
form	-438
▁when	-439
old	-440
fer	-441
▁fe	-442
ious	-443
▁bet	-444
▁cent	-445
ubl	-446
ail	-447
ath	-448
▁them	-449
▁8	-450
one	-451
ered	-452
▁new	-453
als	-454
▁9	-455
gan	-456
aw	-457
ix	-458
▁As	-459
▁cons	-460
▁An	-461
aus	-462
ved	-463
▁Mar	-464
ake	-465
▁rem	-466
▁dec	-467
▁sec	-468
▁only	-469
reat	-470
▁game	-471
▁ear	-472
▁kn	-473
ick	-474
▁most	-475
ons	-476
▁during	-477
ween	-478
oth	-479
orth	-480
▁Ar	-481
ans	-482
way	-483
ollow	-484
▁film	-485
ft	-486
▁song	-487
orn	-488
▁New	-489
rop	-490
▁than	-491
▁about	-492
▁Se	-493
▁can	-494
▁inter	-495
hip	-496
ug	-497
ve	-498
ict	-499
▁tr	-500
▁199	-501
▁between	-502
▁three	-503
▁fin	-504
iew	-505
▁produ	-506
▁me	-507
▁act	-508
hn	-509
ook	-510
▁char	-511
▁later	-512
▁through	-513
ational	-514
▁again	-515
outh	-516
▁rel	-517
ob	-518
▁col	-519
fore	-520
▁ret	-521
▁ver	-522
▁under	-523
▁fl	-524
▁qu	-525
▁num	-526
▁writ	-527
▁pos	-528
ron	-529
▁00	-530
▁Com	-531
ular	-532
▁bu	-533
▁ra	-534
▁gen	-535
▁En	-536
lect	-537
ision	-538
▁record	-539
▁end	-540
▁rele	-541
▁season	-542
ock	-543
▁so	-544
orld	-545
▁spec	-546
▁while	-547
▁Amer	-548
ters	-549
▁Americ	-550
ral	-551
▁ass	-552
▁made	-553
▁pr	-554
▁where	-555
ished	-556
▁ac	-557
▁acc	-558
ton	-559
▁form	-560
▁such	-561
▁sub	-562
hes	-563
ating	-564
ics	-565
ever	-566
ived	-567
ames	-568
▁reg	-569
ros	-570
hen	-571
▁ep	-572
▁Le	-573
▁call	-574
▁pe	-575
▁some	-576
▁follow	-577
ific	-578
bum	-579
▁mov	-580
ool	-581
ike	-582
▁lar	-583
▁/	-584
▁day	-585
▁mus	-586
▁am	-587
aid	-588
io	-589
ank	-590
▁At	-591
▁years	-592
▁000	-593
▁four	-594
▁def	-595
ll	-596
ury	-597
ual	-598
▁Jo	-599
▁no	-600
▁publ	-601
▁there	-602
▁used	-603
▁This	-604
▁Re	-605
▁before	-606
▁ind	-607
ily	-608
▁second	-609
▁tra	-610
ode	-611
olog	-612
▁do	-613
ident	-614
▁album	-615
▁epis	-616
ins	-617
▁exp	-618
▁mon	-619
▁10	-620
ife	-621
▁high	-622
rans	-623
▁0	-624
ning	-625
iel	-626
▁pres	-627
▁sy	-628
ten	-629
▁ent	-630
owever	-631
▁supp	-632
uc	-633
▁being	-634
enn	-635
ale	-636
▁set	-637
▁bl	-638
ather	-639
other	-640
▁met	-641
ject	-642
▁sur	-643
▁Sh	-644
iver	-645
▁found	-646
▁then	-647
▁loc	-648
ek	-649
ram	-650
ane	-651
▁17	-652
▁number	-653
▁series	-654
velop	-655
ars	-656
▁became	-657
ines	-658
ise	-659
ause	-660
aj	-661
pr	-662
ained	-663
▁sever	-664
ised	-665
air	-666
▁rece	-667
▁12	-668
▁show	-669
▁well	-670
ities	-671
▁charac	-672
▁She	-673
ince	-674
▁both	-675
▁Eng	-676
▁After	-677
ier	-678
son	-679
▁198	-680
▁sing	-681
▁add	-682
any	-683
its	-684
▁Brit	-685
▁194	-686
▁co	-687
irect	-688
ivers	-689
ik	-690
▁inv	-691
ird	-692
▁John	-693
ement	-694
led	-695
▁back	-696
▁against	-697
ired	-698
▁Sc	-699
▁—	-700
▁Wh	-701
▁long	-702
ann	-703
▁United	-704
igin	-705
row	-706
ower	-707
▁including	-708
▁Sp	-709
▁team	-710
ative	-711
▁known	-712
▁many	-713
ful	-714
▁em	-715
▁rep	-716
au	-717
▁desc	-718
elf	-719
erm	-720
▁cre	-721
▁trans	-722
▁perform	-723
ert	-724
▁did	-725
der	-726
▁ob	-727
▁sm	-728
▁16	-729
ures	-730
eral	-731
ober	-732
▁main	-733
▁op	-734
ross	-735
▁15	-736
▁rev	-737
▁episode	-738
ually	-739
oot	-740
▁could	-741
ley	-742
ared	-743
▁stud	-744
az	-745
▁ship	-746
ting	-747
▁develop	-748
▁dif	-749
iet	-750
▁pop	-751
▁min	-752
▁called	-753
tend	-754
ield	-755
▁several	-756
ized	-757
▁go	-758
overn	-759
ern	-760
▁lead	-761
▁Ind	-762
though	-763
▁est	-764
▁po	-765
uch	-766
▁bro	-767
▁dep	-768
▁Con	-769
▁196	-770
▁197	-771
▁American	-772
apt	-773
une	-774
▁mill	-775
▁said	-776
▁contin	-777
▁comple	-778
my	-779
til	-780
▁11	-781
▁pol	-782
roup	-783
▁Car	-784
iam	-785
▁conc	-786
ven	-787
▁origin	-788
ah	-789
ute	-790
▁Z	-791
▁any	-792
ism	-793
▁dist	-794
▁bel	-795
▁imp	-796
▁began	-797
up	-798
▁direct	-799
▁sign	-800
ash	-801
▁early	-802
emb	-803
▁near	-804
▁car	-805
▁inf	-806
▁disc	-807
ued	-808
▁century	-809
▁return	-810
▁May	-811
▁design	-812
▁crit	-813
▁hist	-814
▁inst	-815
ty	-816
▁War	-817
▁may	-818
imes	-819
▁Is	-820
▁until	-821
▁war	-822
ments	-823
ople	-824
chool	-825
▁run	-826
▁Aust	-827
ccess	-828
▁art	-829
ided	-830
aking	-831
▁these	-832
▁describ	-833
▁ph	-834
und	-835
ull	-836
▁music	-837
▁fam	-838
▁use	-839
▁though	-840
▁Cl	-841
ys	-842
▁down	-843
▁feat	-844
▁sim	-845
▁ins	-846
ves	-847
▁along	-848
ouse	-849
rist	-850
ove	-851
▁Bl	-852
erson	-853
cept	-854
▁mat	-855
▁own	-856
ists	-857
▁eff	-858
gest	-859
els	-860
▁released	-861
▁same	-862
ution	-863
ured	-864
▁resp	-865
xt	-866
▁const	-867
▁195	-868
▁prov	-869
▁appear	-870
ially	-871
osed	-872
▁British	-873
ajor	-874
▁Pl	-875
ruct	-876
▁prev	-877
▁mil	-878
▁like	-879
▁start	-880
▁Col	-881
▁occ	-882
▁They	-883
yp	-884
▁Br	-885
▁city	-886
▁open	-887
ible	-888
amed	-889
▁World	-890
urch	-891
▁group	-892
▁offic	-893
▁land	-894
ets	-895
erv	-896
▁US	-897
▁because	-898
▁br	-899
▁Ad	-900
▁De	-901
▁193	-902
▁13	-903
▁success	-904
ink	-905
erman	-906
▁small	-907
▁gr	-908
▁air	-909
▁All	-910
▁Aug	-911
ange	-912
▁each	-913
▁August	-914
▁million	-915
▁character	-916
ris	-917
ger	-918
ined	-919
▁poin	-920
ina	-921
▁count	-922
▁mod	-923
ium	-924
uth	-925
▁ed	-926
▁win	-927
▁build	-928
▁area	-929
▁around	-930
▁people	-931
▁ele	-932
▁govern	-933
▁ever	-934
stem	-935
▁pass	-936
▁Mc	-937
ains	-938
▁Sept	-939
▁gu	-940
▁191	-941
▁km	-942
oss	-943
ck	-944
anc	-945
▁life	-946
ues	-947
ax	-948
ged	-949
▁attack	-950
wards	-951
▁September	-952
▁north	-953
▁batt	-954
▁oper	-955
▁var	-956
▁six	-957
ales	-958
▁support	-959
▁consid	-960
▁States	-961
▁class	-962
▁Ju	-963
aced	-964
▁following	-965
▁However	-966
▁14	-967
eb	-968
yl	-969
▁Be	-970
▁head	-971
itt	-972
▁state	-973
ble	-974
▁Q	-975
raph	-976
▁For	-977
▁will	-978
ording	-979
▁German	-980
▁Austral	-981
▁partic	-982
esp	-983
▁Fran	-984
▁prom	-985
▁received	-986
aving	-987
▁large	-988
ient	-989
▁five	-990
▁result	-991
ball	-992
▁$	-993
ats	-994
▁adv	-995
ural	-996
ox	-997
med	-998
▁report	-999
▁June	-1000
▁Christ	-1001
▁Pro	-1002
ants	-1003
iving	-1004
▁ann	-1005
▁Jan	-1006
oman	-1007
▁ext	-1008
▁Oct	-1009
▁took	-1010
▁Comm	-1011
ague	-1012
▁Nov	-1013
▁mar	-1014
▁care	-1015
ility	-1016
▁public	-1017
▁old	-1018
▁October	-1019
ives	-1020
ner	-1021
▁camp	-1022
ilt	-1023
▁%	-1024
▁Apr	-1025
ored	-1026
▁April	-1027
..	-1028
▁contro	-1029
▁Dec	-1030
▁major	-1031
▁Ph	-1032
▁week	-1033
▁since	-1034
▁]	-1035
ately	-1036
▁York	-1037
▁[	-1038
gin	-1039
sion	-1040
▁conf	-1041
▁book	-1042
uary	-1043
ission	-1044
rote	-1045
▁det	-1046
▁North	-1047
ling	-1048
▁last	-1049
▁differ	-1050
▁hel	-1051
inc	-1052
omet	-1053
▁rest	-1054
ont	-1055
▁During	-1056
aim	-1057
▁Me	-1058
▁med	-1059
▁wrote	-1060
▁ref	-1061
▁...	-1062
▁str	-1063
▁species	-1064
ional	-1065
ians	-1066
get	-1067
▁just	-1068
ract	-1069
▁if	-1070
ected	-1071
▁what	-1072
lish	-1073
▁system	-1074
▁dra	-1075
▁single	-1076
ively	-1077
ole	-1078
ret	-1079
▁tit	-1080
▁Eu	-1081
▁Ge	-1082
ption	-1083
hel	-1084
▁incre	-1085
▁played	-1086
▁tri	-1087
▁allow	-1088
ony	-1089
▁child	-1090
▁left	-1091
▁South	-1092
▁July	-1093
▁described	-1094
▁sl	-1095
▁south	-1096
▁much	-1097
▁name	-1098
▁death	-1099
ham	-1100
▁vis	-1101
▁March	-1102
ivision	-1103
▁When	-1104
▁school	-1105
▁November	-1106
ified	-1107
▁line	-1108
▁By	-1109
▁II	-1110
app	-1111
orp	-1112
ically	-1113
▁world	-1114
▁short	-1115
ilar	-1116
▁Gu	-1117
empt	-1118
▁due	-1119
▁25	-1120
▁bre	-1121
▁final	-1122
oard	-1123
▁January	-1124
▁Can	-1125
▁dam	-1126
▁expl	-1127
ness	-1128
omin	-1129
▁won	-1130
ection	-1131
▁family	-1132
▁30	-1133
rand	-1134
idge	-1135
iversity	-1136
▁another	-1137
▁poss	-1138
ster	-1139
ene	-1140
ently	-1141
▁prot	-1142
▁review	-1143
▁King	-1144
▁based	-1145
▁home	-1146
▁appro	-1147
▁gener	-1148
ple	-1149
▁His	-1150
ience	-1151
▁December	-1152
▁month	-1153
ature	-1154
▁story	-1155
avy	-1156
rew	-1157
▁gun	-1158
▁prog	-1159
▁power	-1160
▁now	-1161
▁port	-1162
▁even	-1163
ital	-1164
▁serv	-1165
▁Her	-1166
ages	-1167
▁place	-1168
ody	-1169
▁named	-1170
ology	-1171
ched	-1172
▁belie	-1173
▁hand	-1174
▁elect	-1175
▁Par	-1176
▁way	-1177
▁kill	-1178
▁very	-1179
by	-1180
ideo	-1181
▁par	-1182
▁list	-1183
▁192	-1184
▁included	-1185
▁Har	-1186
▁government	-1187
▁Pr	-1188
▁Bro	-1189
▁Europ	-1190
▁leg	-1191
▁There	-1192
▁organ	-1193
itions	-1194
iod	-1195
▁attempt	-1196
▁top	-1197
▁event	-1198
▁track	-1199
eng	-1200
▁hum	-1201
ides	-1202
▁And	-1203
▁late	-1204
ention	-1205
▁person	-1206
ences	-1207
▁Mus	-1208
▁requ	-1209
▁within	-1210
▁make	-1211
cl	-1212
mp	-1213
▁view	-1214
▁those	-1215
▁best	-1216
lev	-1217
▁real	-1218
alf	-1219
▁Fl	-1220
▁fur	-1221
ached	-1222
▁term	-1223
▁dr	-1224
▁Te	-1225
▁third	-1226
▁estab	-1227
▁sk	-1228
ances	-1229
▁turn	-1230
▁mark	-1231
▁previous	-1232
▁men	-1233
riend	-1234
▁Will	-1235
ae	-1236
ai	-1237
▁effect	-1238
alk	-1239
▁iss	-1240
ulation	-1241
▁band	-1242
▁built	-1243
▁100	-1244
▁led	-1245
▁City	-1246
apan	-1247
▁great	-1248
▁role	-1249
ott	-1250
sh	-1251
que	-1252
▁games	-1253
▁Europe	-1254
▁period	-1255
▁exper	-1256
▁original	-1257
iven	-1258
▁fun	-1259
▁National	-1260
▁We	-1261
▁eng	-1262
ories	-1263
▁Japan	-1264
▁dem	-1265
oad	-1266
ense	-1267
▁Min	-1268
let	-1269
ruction	-1270
ented	-1271
ms	-1272
▁still	-1273
itary	-1274
ler	-1275
▁mag	-1276
▁Mich	-1277
▁right	-1278
elt	-1279
▁2010	-1280
▁West	-1281
▁prop	-1282
ne	-1283
▁opp	-1284
▁help	-1285
atic	-1286
▁repl	-1287
▁player	-1288
ops	-1289
▁similar	-1290
▁typ	-1291
▁often	-1292
oci	-1293
▁dest	-1294
▁next	-1295
▁star	-1296
▁although	-1297
lu	-1298
bs	-1299
▁my	-1300
ograph	-1301
▁Batt	-1302
▁auth	-1303
▁sug	-1304
ech	-1305
▁capt	-1306
▁water	-1307
▁career	-1308
dom	-1309
self	-1310
▁River	-1311
▁command	-1312
read	-1313
ead	-1314
ival	-1315
▁&	-1316
reet	-1317
ior	-1318
▁came	-1319
▁sold	-1320
▁Or	-1321
gy	-1322
▁Man	-1323
▁cour	-1324
ropical	-1325
▁Count	-1326
▁deb	-1327
▁2009	-1328
▁former	-1329
▁few	-1330
▁Ed	-1331
▁memb	-1332
▁addition	-1333
▁sent	-1334
▁video	-1335
eter	-1336
side	-1337
ister	-1338
rench	-1339
idd	-1340
ried	-1341
▁storm	-1342
arn	-1343
▁England	-1344
urs	-1345
▁moved	-1346
aken	-1347
▁caus	-1348
▁history	-1349
▁Gen	-1350
ls	-1351
uted	-1352
▁Rec	-1353
▁spe	-1354
▁different	-1355
▁you	-1356
▁2008	-1357
aster	-1358
aining	-1359
▁cover	-1360
▁21	-1361
▁held	-1362
▁tw	-1363
▁town	-1364
▁considered	-1365
uss	-1366
▁init	-1367
augh	-1368
▁claim	-1369
▁stand	-1370
▁days	-1371
par	-1372
tended	-1373
▁local	-1374
enc	-1375
▁every	-1376
aged	-1377
akes	-1378
▁cur	-1379
hem	-1380
▁version	-1381
▁One	-1382
raft	-1383
▁cap	-1384
▁2007	-1385
▁among	-1386
br	-1387
reen	-1388
▁however	-1389
▁suggest	-1390
estern	-1391
▁join	-1392
ebru	-1393
▁say	-1394
▁continued	-1395
▁ant	-1396
▁common	-1397
▁written	-1398
▁French	-1399
ering	-1400
▁without	-1401
ittle	-1402
line	-1403
▁Acc	-1404
▁State	-1405
▁release	-1406
▁published	-1407
▁trad	-1408
▁import	-1409
rodu	-1410
▁Febru	-1411
▁February	-1412
▁Am	-1413
▁fre	-1414
▁side	-1415
▁become	-1416
ese	-1417
yle	-1418
ize	-1419
▁nov	-1420
▁Char	-1421
▁Geor	-1422
▁beh	-1423
▁Ne	-1424
▁take	-1425
▁bas	-1426
▁Park	-1427
▁With	-1428
▁el	-1429
▁gave	-1430
oon	-1431
▁polit	-1432
▁find	-1433
▁half	-1434
▁recorded	-1435
▁far	-1436
ator	-1437
▁plan	-1438
▁Ear	-1439
▁University	-1440
ots	-1441
▁order	-1442
levision	-1443
▁further	-1444
▁members	-1445
▁youn	-1446
▁24	-1447
atch	-1448
▁conv	-1449
▁Tr	-1450
▁av	-1451
▁Although	-1452
iter	-1453
▁fore	-1454
▁X	-1455
ices	-1456
▁foot	-1457
▁23	-1458
▁English	-1459
▁tot	-1460
atter	-1461
▁particular	-1462
ards	-1463
▁190	-1464
ours	-1465
▁del	-1466
▁road	-1467
▁field	-1468
▁level	-1469
▁prof	-1470
▁post	-1471
esc	-1472
▁having	-1473
▁No	-1474
▁appe	-1475
aur	-1476
▁Ab	-1477
▁vict	-1478
roy	-1479
▁equ	-1480
▁Bar	-1481
▁chang	-1482
▁ships	-1483
▁repres	-1484
ches	-1485
▁tem	-1486
▁strong	-1487
▁refer	-1488
ones	-1489
astern	-1490
▁father	-1491
onn	-1492
▁22	-1493
rent	-1494
▁William	-1495
▁club	-1496
▁returned	-1497
▁wind	-1498
ternational	-1499
isc	-1500
▁Cal	-1501
▁obs	-1502
lear	-1503
▁arr	-1504
▁invol	-1505
▁compet	-1506
urric	-1507
▁point	-1508
▁According	-1509
▁El	-1510
▁cr	-1511
▁sound	-1512
▁defe	-1513
▁never	-1514
▁Dav	-1515
▁er	-1516
▁position	-1517
▁Comp	-1518
ampions	-1519
iety	-1520
▁less	-1521
▁influ	-1522
▁2006	-1523
ney	-1524
irc	-1525
▁project	-1526
be	-1527
anted	-1528
▁Canad	-1529
▁Division	-1530
▁author	-1531
▁26	-1532
▁While	-1533
▁production	-1534
pped	-1535
▁program	-1536
▁nort	-1537
▁read	-1538
▁Ass	-1539
▁red	-1540
yn	-1541
itive	-1542
▁friend	-1543
sp	-1544
▁how	-1545
▁fact	-1546
rem	-1547
ring	-1548
▁Su	-1549
ably	-1550
▁sit	-1551
▁2012	-1552
▁light	-1553
▁eight	-1554
ges	-1555
echn	-1556
ery	-1557
▁songs	-1558
ille	-1559
▁company	-1560
▁produced	-1561
ief	-1562
ront	-1563
▁2011	-1564
▁low	-1565
▁arch	-1566
▁children	-1567
▁reported	-1568
ament	-1569
▁west	-1570
▁somet	-1571
▁ter	-1572
▁east	-1573
omen	-1574
osp	-1575
▁law	-1576
▁title	-1577
▁military	-1578
af	-1579
▁given	-1580
ush	-1581
▁Mo	-1582
aren	-1583
ung	-1584
ailed	-1585
▁total	-1586
▁include	-1587
ising	-1588
▁League	-1589
▁Sw	-1590
▁ord	-1591
▁times	-1592
▁critic	-1593
aign	-1594
▁Pol	-1595
▁should	-1596
sequ	-1597
▁Ex	-1598
▁histor	-1599
▁28	-1600
▁50	-1601
used	-1602
▁super	-1603
▁Jack	-1604
▁lim	-1605
ublic	-1606
▁stat	-1607
ining	-1608
▁aff	-1609
▁sol	-1610
▁Cent	-1611
▁commun	-1612
▁stated	-1613
▁surv	-1614
▁fem	-1615
▁lost	-1616
cess	-1617
hest	-1618
play	-1619
▁house	-1620
ensive	-1621
▁making	-1622
▁comb	-1623
outher	-1624
hern	-1625
▁la	-1626
▁himself	-1627
▁2013	-1628
▁good	-1629
iment	-1630
▁ide	-1631
▁country	-1632
▁building	-1633
▁Af	-1634
▁27	-1635
▁fire	-1636
▁across	-1637
rick	-1638
▁189	-1639
▁McC	-1640
▁div	-1641
▁These	-1642
outhern	-1643
▁produc	-1644
ford	-1645
▁Lond	-1646
urricane	-1647
ords	-1648
▁need	-1649
▁London	-1650
aces	-1651
▁died	-1652
ape	-1653
ither	-1654
▁Army	-1655
▁anim	-1656
▁felt	-1657
itar	-1658
▁adm	-1659
▁using	-1660
▁popular	-1661
▁interest	-1662
▁television	-1663
▁son	-1664
▁County	-1665
aul	-1666
▁Med	-1667
▁went	-1668
▁hig	-1669
▁press	-1670
▁introdu	-1671
orse	-1672
▁Roy	-1673
▁age	-1674
▁signific	-1675
▁developed	-1676
▁Miss	-1677
▁present	-1678
▁writing	-1679
▁General	-1680
ination	-1681
▁novel	-1682
fic	-1683
▁ke	-1684
▁control	-1685
▁mm	-1686
iness	-1687
ration	-1688
▁chart	-1689
▁match	-1690
▁noted	-1691
▁development	-1692
▁away	-1693
utes	-1694
▁pat	-1695
▁announ	-1696
▁Ste	-1697
lished	-1698
iber	-1699
▁Black	-1700
▁destroy	-1701
omb	-1702
▁discover	-1703
aly	-1704
▁soc	-1705
▁bo	-1706
ask	-1707
▁Australia	-1708
▁ground	-1709
▁ten	-1710
▁val	-1711
▁ft	-1712
▁cast	-1713
aff	-1714
ades	-1715
less	-1716
▁reached	-1717
▁body	-1718
▁style	-1719
idence	-1720
work	-1721
aint	-1722
ript	-1723
view	-1724
▁Per	-1725
▁America	-1726
▁established	-1727
ffic	-1728
▁Sim	-1729
▁struct	-1730
ampionship	-1731
ana	-1732
▁gl	-1733
▁white	-1734
oll	-1735
ream	-1736
vers	-1737
▁campaign	-1738
▁pra	-1739
▁rad	-1740
▁award	-1741
▁’	-1742
ison	-1743
▁feet	-1744
▁thought	-1745
▁Co	-1746
▁cult	-1747
ression	-1748
▁night	-1749
▁throughout	-1750
amb	-1751
▁Mon	-1752
most	-1753
▁little	-1754
ploy	-1755
▁sum	-1756
▁look	-1757
▁see	-1758
▁wid	-1759
▁seen	-1760
▁Port	-1761
▁manag	-1762
▁months	-1763
▁bus	-1764
ray	-1765
▁cy	-1766
▁full	-1767
ington	-1768
▁Reg	-1769
▁forces	-1770
isted	-1771
▁Christian	-1772
itted	-1773
▁get	-1774
reek	-1775
ground	-1776
▁Afric	-1777
▁Sec	-1778
olution	-1779
int	-1780
ope	-1781
reg	-1782
▁Rep	-1783
▁cor	-1784
▁cross	-1785
▁remained	-1786
▁Street	-1787
▁island	-1788
▁important	-1789
ogn	-1790
▁mid	-1791
▁too	-1792
alion	-1793
▁squ	-1794
▁techn	-1795
▁sw	-1796
▁aud	-1797
▁James	-1798
▁begin	-1799
rie	-1800
▁Gl	-1801
▁Sm	-1802
▁areas	-1803
▁enc	-1804
▁entire	-1805
▁started	-1806
▁arm	-1807
▁Roman	-1808
▁significant	-1809
uck	-1810
ases	-1811
▁promot	-1812
▁ident	-1813
▁seven	-1814
▁battle	-1815
▁population	-1816
▁black	-1817
▁characters	-1818
ries	-1819
▁High	-1820
▁cond	-1821
▁site	-1822
▁successful	-1823
iec	-1824
▁ste	-1825
ael	-1826
▁rank	-1827
▁miles	-1828
▁modern	-1829
iers	-1830
▁You	-1831
▁Road	-1832
▁earl	-1833
▁let	-1834
▁occur	-1835
▁created	-1836
▁!	-1837
reed	-1838
▁Mad	-1839
▁various	-1840
▁performance	-1841
day	-1842
ivil	-1843
▁mount	-1844
alth	-1845
ways	-1846
ample	-1847
iting	-1848
▁Pres	-1849
▁tour	-1850
acy	-1851
ald	-1852
rap	-1853
▁tropical	-1854
▁relations	-1855
▁construction	-1856
▁2005	-1857
▁decl	-1858
lected	-1859
▁national	-1860
abor	-1861
▁able	-1862
▁cert	-1863
leet	-1864
▁non	-1865
▁put	-1866
▁does	-1867
ization	-1868
▁official	-1869
ressed	-1870
▁Cro	-1871
▁pit	-1872
ality	-1873
eth	-1874
ids	-1875
rest	-1876
▁activ	-1877
imately	-1878
▁Song	-1879
▁born	-1880
▁vill	-1881
▁human	-1882
▁Japanese	-1883
▁cou	-1884
▁pri	-1885
ula	-1886
▁To	-1887
▁bar	-1888
▁Phil	-1889
▁killed	-1890
gr	-1891
▁lik	-1892
ological	-1893
▁Atl	-1894
▁vol	-1895
▁Rober	-1896
emy	-1897
▁fav	-1898
▁grow	-1899
ym	-1900
▁29	-1901
oice	-1902
asing	-1903
▁others	-1904
▁broad	-1905
▁colle	-1906
ects	-1907
▁prim	-1908
ara	-1909
▁186	-1910
▁Air	-1911
▁meet	-1912
▁performed	-1913
▁political	-1914
▁z	-1915
▁40	-1916
▁guns	-1917
▁process	-1918
epend	-1919
▁pred	-1920
▁Rich	-1921
▁aver	-1922
▁circ	-1923
▁formed	-1924
▁Act	-1925
ought	-1926
ump	-1927
▁But	-1928
▁range	-1929
▁George	-1930
▁located	-1931
ened	-1932
▁188	-1933
▁Australian	-1934
com	-1935
vent	-1936
▁caused	-1937
gl	-1938
▁players	-1939
▁mix	-1940
▁followed	-1941
▁ask	-1942
▁force	-1943
icated	-1944
▁decided	-1945
▁special	-1946
▁cop	-1947
▁round	-1948
▁tro	-1949
▁Hist	-1950
▁hit	-1951
ument	-1952
▁mother	-1953
▁young	-1954
▁instead	-1955
▁service	-1956
▁appeared	-1957
cast	-1958
rict	-1959
rought	-1960
ned	-1961
▁church	-1962
craft	-1963
▁sett	-1964
gether	-1965
▁Church	-1966
▁together	-1967
here	-1968
enced	-1969
▁base	-1970
▁loss	-1971
▁impro	-1972
▁once	-1973
ivid	-1974
▁taken	-1975
▁Royal	-1976
▁served	-1977
▁2004	-1978
▁conn	-1979
azine	-1980
por	-1981
▁arg	-1982
▁know	-1983
▁becom	-1984
ze	-1985
ency	-1986
▁general	-1987
umb	-1988
iron	-1989
onom	-1990
▁Old	-1991
▁announced	-1992
▁Ke	-1993
▁Bill	-1994
▁added	-1995
▁events	-1996
▁completed	-1997
odes	-1998
▁cell	-1999
▁insp	-2000
▁redu	-2001
▁Indian	-2002
▁creat	-2003
▁185	-2004
▁mot	-2005
▁Island	-2006
field	-2007
igade	-2008
▁hold	-2009
hing	-2010
rison	-2011
ully	-2012
▁Thom	-2013
elling	-2014
ficult	-2015
iction	-2016
oul	-2017
▁voc	-2018
▁rock	-2019
▁coast	-2020
▁Atlant	-2021
unk	-2022
alls	-2023
▁Mag	-2024
▁live	-2025
▁tradition	-2026
ems	-2027
ying	-2028
▁wife	-2029
ecut	-2030
▁East	-2031
▁Brown	-2032
ius	-2033
▁Ser	-2034
board	-2035
▁difficult	-2036
▁hon	-2037
▁2003	-2038
▁comment	-2039
▁Ir	-2040
▁upon	-2041
▁least	-2042
▁example	-2043
urb	-2044
eder	-2045
aper	-2046
▁coun	-2047
▁fac	-2048
▁recogn	-2049
▁tre	-2050
den	-2051
duct	-2052
▁crew	-2053
▁separ	-2054
ki	-2055
▁front	-2056
ica	-2057
▁cost	-2058
▁travel	-2059
▁generally	-2060
ett	-2061
▁quest	-2062
olf	-2063
ements	-2064
▁member	-2065
▁eventually	-2066
ino	-2067
rab	-2068
▁women	-2069
ential	-2070
▁profess	-2071
chie	-2072
▁features	-2073
ceed	-2074
▁Mor	-2075
iding	-2076
▁Music	-2077
▁fig	-2078
▁reb	-2079
▁critics	-2080
gg	-2081
▁saw	-2082
▁2014	-2083
▁behind	-2084
▁peak	-2085
▁sequ	-2086
▁mater	-2087
▁action	-2088
▁bird	-2089
aching	-2090
▁accept	-2091
▁relationship	-2092
▁Red	-2093
▁exc	-2094
istic	-2095
▁host	-2096
oph	-2097
▁cut	-2098
ength	-2099
▁Desp	-2100
▁Pal	-2101
▁Mount	-2102
▁proble	-2103
▁31	-2104
▁stri	-2105
▁mass	-2106
▁almost	-2107
men	-2108
▁ce	-2109
ourn	-2110
ators	-2111
ipp	-2112
▁coll	-2113
▁rather	-2114
▁suff	-2115
▁route	-2116
▁aircraft	-2117
▁Other	-2118
▁works	-2119
▁worked	-2120
▁president	-2121
cher	-2122
▁Some	-2123
▁mer	-2124
igned	-2125
▁associ	-2126
▁provided	-2127
▁fight	-2128
▁fif	-2129
▁region	-2130
▁dev	-2131
▁close	-2132
alt	-2133
▁ren	-2134
▁accom	-2135
▁individ	-2136
▁Day	-2137
▁San	-2138
▁heavy	-2139
▁clos	-2140
▁test	-2141
▁weeks	-2142
medi	-2143
▁sour	-2144
▁either	-2145
▁resear	-2146
▁brought	-2147
ata	-2148
▁playing	-2149
▁foc	-2150
▁Part	-2151
▁appoin	-2152
ico	-2153
aves	-2154
▁nar	-2155
▁estim	-2156
▁believed	-2157
ma	-2158
▁ill	-2159
ama	-2160
▁David	-2161
▁originally	-2162
▁lack	-2163
inal	-2164
▁opened	-2165
▁southern	-2166
▁Play	-2167
▁contract	-2168
urg	-2169
ming	-2170
▁Hen	-2171
iation	-2172
▁Pe	-2173
▁ec	-2174
▁Ire	-2175
▁dou	-2176
yd	-2177
▁2015	-2178
▁mult	-2179
arch	-2180
▁case	-2181
▁nomin	-2182
▁relig	-2183
▁commer	-2184
cil	-2185
▁My	-2186
atural	-2187
▁inform	-2188
▁ball	-2189
▁wanted	-2190
▁Ireland	-2191
▁leading	-2192
angu	-2193
wood	-2194
▁Robert	-2195
▁187	-2196
▁500	-2197
▁length	-2198
iol	-2199
▁sex	-2200
▁stru	-2201
aps	-2202
▁miss	-2203
cial	-2204
ills	-2205
ique	-2206
orts	-2207
ston	-2208
▁fund	-2209
▁represent	-2210
▁Go	-2211
▁Sch	-2212
▁laun	-2213
▁allowed	-2214
bert	-2215
val	-2216
▁Em	-2217
▁prob	-2218
▁Company	-2219
▁eastern	-2220
▁appearance	-2221
▁Ha	-2222
▁neg	-2223
iddle	-2224
mar	-2225
▁Game	-2226
▁White	-2227
▁exist	-2228
▁Kingdom	-2229
BC	-2230
bor	-2231
▁Que	-2232
▁Mary	-2233
▁Paul	-2234
▁scored	-2235
▁Republic	-2236
▁ey	-2237
ellow	-2238
▁respect	-2239
▁towards	-2240
▁esc	-2241
rain	-2242
▁object	-2243
▁highway	-2244
▁First	-2245
artment	-2246
igan	-2247
erous	-2248
▁House	-2249
ography	-2250
ule	-2251
▁quick	-2252
▁points	-2253
head	-2254
▁Two	-2255
▁particularly	-2256
▁river	-2257
▁material	-2258
stit	-2259
▁God	-2260
▁station	-2261
▁victory	-2262
▁business	-2263
uk	-2264
▁Gr	-2265
▁Ang	-2266
▁School	-2267
▁indust	-2268
▁placed	-2269
▁Follow	-2270
▁featured	-2271
▁President	-2272
itz	-2273
▁bi	-2274
▁vot	-2275
▁desp	-2276
▁phys	-2277
▁brother	-2278
▁positive	-2279
ee	-2280
tt	-2281
▁2000	-2282
▁fourth	-2283
ville	-2284
▁must	-2285
▁subsequ	-2286
ps	-2287
eal	-2288
ores	-2289
▁free	-2290
▁stars	-2291
▁current	-2292
▁working	-2293
ude	-2294
▁damage	-2295
▁directed	-2296
▁°	-2297
sel	-2298
▁Ham	-2299
erved	-2300
aval	-2301
ving	-2302
▁Navy	-2303
▁Crit	-2304
itor	-2305
▁Som	-2306
go	-2307
aker	-2308
▁draw	-2309
▁saying	-2310
▁Following	-2311
▁2001	-2312
▁meas	-2313
▁regard	-2314
▁finished	-2315
atory	-2316
▁director	-2317
▁France	-2318
▁possible	-2319
ago	-2320
ida	-2321
cent	-2322
▁Mac	-2323
▁Best	-2324
▁soon	-2325
▁designed	-2326
▁king	-2327
▁opening	-2328
▁Despite	-2329
▁European	-2330
▁ly	-2331
▁move	-2332
anding	-2333
▁Love	-2334
▁scene	-2335
▁elements	-2336
alv	-2337
ota	-2338
▁Jenn	-2339
▁Michael	-2340
▁involved	-2341
ift	-2342
ylan	-2343
▁outside	-2344
now	-2345
▁Ol	-2346
▁Thomas	-2347
▁engine	-2348
▁invest	-2349
ites	-2350
▁disp	-2351
▁reve	-2352
▁Dylan	-2353
▁transfer	-2354
▁Sen	-2355
▁Town	-2356
▁mean	-2357
▁largest	-2358
▁Qu	-2359
irth	-2360
▁treat	-2361
▁territ	-2362
▁regular	-2363
ky	-2364
▁From	-2365
▁female	-2366
▁proper	-2367
▁nuc	-2368
▁langu	-2369
▁International	-2370
▁NY	-2371
ecess	-2372
▁2002	-2373
▁Hall	-2374
▁usually	-2375
▁Cup	-2376
▁Grand	-2377
osition	-2378
▁average	-2379
▁35	-2380
▁La	-2381
▁Ber	-2382
▁pract	-2383
uel	-2384
▁Im	-2385
tain	-2386
▁hop	-2387
▁Most	-2388
ishing	-2389
antry	-2390
▁Flor	-2391
▁achie	-2392
▁joined	-2393
lic	-2394
▁80	-2395
▁ve	-2396
pper	-2397
edy	-2398
west	-2399
▁Hol	-2400
▁vir	-2401
orses	-2402
itte	-2403
▁god	-2404
usion	-2405
▁whom	-2406
▁above	-2407
▁issue	-2408
▁football	-2409
iff	-2410
▁Bra	-2411
▁priv	-2412
▁Great	-2413
▁troops	-2414
▁evidence	-2415
▁Mont	-2416
▁goal	-2417
▁earlier	-2418
▁account	-2419
▁Battalion	-2420
▁Championship	-2421
▁Ag	-2422
▁Sl	-2423
▁unc	-2424
▁told	-2425
▁writer	-2426
▁replaced	-2427
▁study	-2428
▁northern	-2429
etic	-2430
uter	-2431
▁fort	-2432
▁central	-2433
▁Ev	-2434
▁Corp	-2435
▁love	-2436
▁stay	-2437
ference	-2438
▁-	-2439
▁hous	-2440
lement	-2441
▁aut	-2442
▁1990	-2443
▁shot	-2444
▁respons	-2445
inf	-2446
▁Ac	-2447
▁rap	-2448
▁signed	-2449
▁previously	-2450
ha	-2451
▁Rock	-2452
eum	-2453
▁184	-2454
▁Nor	-2455
▁Vir	-2456
etwork	-2457
▁avail	-2458
rag	-2459
▁Bu	-2460
▁Er	-2461
onst	-2462
ander	-2463
heast	-2464
▁increased	-2465
▁Mex	-2466
▁reason	-2467
▁particip	-2468
aire	-2469
▁sil	-2470
▁race	-2471
ession	-2472
▁praised	-2473
▁den	-2474
▁feel	-2475
▁pers	-2476
ecutive	-2477
ributed	-2478
▁pur	-2479
▁grad	-2480
▁threat	-2481
▁hurricane	-2482
atin	-2483
▁beg	-2484
▁rail	-2485
uation	-2486
▁Union	-2487
▁36	-2488
▁har	-2489
▁scen	-2490
▁hours	-2491
▁Mil	-2492
▁hom	-2493
oke	-2494
▁Battle	-2495
▁highest	-2496
▁construct	-2497
▁initially	-2498
▁metal	-2499
▁Michigan	-2500
▁£	-2501
anned	-2502
ibility	-2503
▁forced	-2504
▁runs	-2505
▁Os	-2506
acter	-2507
▁Colle	-2508
▁clear	-2509
▁employ	-2510
▁office	-2511
oid	-2512
▁cru	-2513
▁Cong	-2514
▁hard	-2515
▁claimed	-2516
ume	-2517
liam	-2518
▁educ	-2519
▁flag	-2520
▁quar	-2521
▁stop	-2522
▁viol	-2523
▁spent	-2524
▁Du	-2525
▁cat	-2526
▁break	-2527
▁horse	-2528
of	-2529
▁Dr	-2530
▁tru	-2531
asion	-2532
iforn	-2533
oring	-2534
rated	-2535
▁1970	-2536
▁poor	-2537
▁remov	-2538
▁recording	-2539
▁past	-2540
▁Wales	-2541
▁might	-2542
▁think	-2543
rey	-2544
▁Star	-2545
▁That	-2546
▁according	-2547
na	-2548
▁mi	-2549
▁Squ	-2550
ification	-2551
ateg	-2552
▁Pac	-2553
▁esp	-2554
osing	-2555
▁Gold	-2556
▁western	-2557
▁interview	-2558
▁commission	-2559
oh	-2560
▁60	-2561
▁Dep	-2562
▁ap	-2563
▁abs	-2564
liament	-2565
▁Canada	-2566
rd	-2567
▁Tom	-2568
▁come	-2569
▁court	-2570
▁tourn	-2571
▁change	-2572
▁itself	-2573
▁passed	-2574
▁Californ	-2575
▁?	-2576
▁mph	-2577
▁Henry	-2578
▁awarded	-2579
▁episodes	-2580
▁introduced	-2581
▁45	-2582
▁Later	-2583
▁conduct	-2584
illa	-2585
▁Jew	-2586
▁inj	-2587
▁1980	-2588
▁nine	-2589
▁debut	-2590
▁stage	-2591
▁despite	-2592
olic	-2593
▁bill	-2594
ability	-2595
▁sometimes	-2596
▁Ever	-2597
▁piec	-2598
ilities	-2599
▁enough	-2600
▁immedi	-2601
▁magazine	-2602
▁buildings	-2603
▁specific	-2604
▁fall	-2605
▁idea	-2606
▁Award	-2607
aut	-2608
▁size	-2609
▁Richard	-2610
▁manager	-2611
▁Hot	-2612
ready	-2613
▁army	-2614
▁cal	-2615
adron	-2616
aries	-2617
▁Just	-2618
▁whose	-2619
▁required	-2620
▁dro	-2621
ittee	-2622
▁gold	-2623
▁units	-2624
▁suggested	-2625
▁California	-2626
gen	-2627
▁fr	-2628
▁183	-2629
▁don	-2630
▁give	-2631
▁civil	-2632
▁center	-2633
▁except	-2634
▁surf	-2635
ulated	-2636
▁stren	-2637
wer	-2638
▁Je	-2639
aled	-2640
▁screen	-2641
▁Pacific	-2642
▁certain	-2643
to	-2644
▁Boy	-2645
▁bur	-2646
▁pot	-2647
▁rul	-2648
▁acqu	-2649
▁Times	-2650
▁independ	-2651
▁available	-2652
leg	-2653
lor	-2654
ights	-2655
inist	-2656
▁daugh	-2657
ks	-2658
▁pay	-2659
elled	-2660
ended	-2661
▁ordered	-2662
ex	-2663
ault	-2664
▁Mark	-2665
▁trib	-2666
▁contr	-2667
ecially	-2668
▁commercial	-2669
hib	-2670
▁App	-2671
▁inn	-2672
thlet	-2673
oration	-2674
▁Britain	-2675
▁reviews	-2676
NA	-2677
▁wat	-2678
porary	-2679
▁shows	-2680
ios	-2681
▁Bell	-2682
▁coin	-2683
▁Brigade	-2684
▁beginning	-2685
inese	-2686
▁bank	-2687
▁prote	-2688
ih	-2689
ergy	-2690
▁frequ	-2691
▁lower	-2692
▁Florida	-2693
▁already	-2694
abit	-2695
inct	-2696
▁Bay	-2697
▁Soc	-2698
lying	-2699
▁films	-2700
▁taking	-2701
▁Chinese	-2702
▁estimated	-2703
▁Dan	-2704
▁Film	-2705
▁Vict	-2706
ription	-2707
▁assist	-2708
▁better	-2709
▁especially	-2710
mb	-2711
▁Cour	-2712
▁Charles	-2713
▁pain	-2714
▁streng	-2715
▁turned	-2716
▁Res	-2717
▁mem	-2718
▁training	-2719
ands	-2720
rian	-2721
▁fut	-2722
▁room	-2723
▁wood	-2724
▁liter	-2725
▁parts	-2726
▁battles	-2727
▁friends	-2728
▁operations	-2729
▁deal	-2730
▁subject	-2731
lex	-2732
▁Val	-2733
▁che	-2734
▁forest	-2735
ranch	-2736
▁1960	-2737
▁ended	-2738
▁winds	-2739
▁Associ	-2740
▁approx	-2741
▁studio	-2742
reak	-2743
▁doc	-2744
arily	-2745
▁Early	-2746
▁determ	-2747
▁proposed	-2748
off	-2749
unt	-2750
bers	-2751
▁remain	-2752
▁product	-2753
▁increasing	-2754
het	-2755
ests	-2756
▁react	-2757
▁village	-2758
▁Mr	-2759
▁male	-2760
▁league	-2761
▁surround	-2762
iqu	-2763
▁Ma	-2764
▁Wood	-2765
▁Care	-2766
ournal	-2767
▁occup	-2768
▁winning	-2769
▁structure	-2770
▁75	-2771
hester	-2772
▁going	-2773
▁party	-2774
▁woman	-2775
▁	-2776
e	-2777
t	-2778
a	-2779
n	-2780
i	-2781
o	-2782
r	-2783
s	-2784
h	-2785
l	-2786
d	-2787
c	-2788
u	-2789
m	-2790
f	-2791
g	-2792
p	-2793
w	-2794
y	-2795
b	-2796
,	-2797
.	-2798
v	-2799
k	-2800
@	-2801
1	-2802
T	-2803
0	-2804
S	-2805
A	-2806
=	-2807
"	-2808
C	-2809
M	-2810
2	-2811
I	-2812
B	-2813
9	-2814
'	-2815
-	-2816
H	-2817
x	-2818
P	-2819
D	-2820
R	-2821
F	-2822
W	-2823
N	-2824
L	-2825
)	-2826
(	-2827
G	-2828
8	-2829
3	-2830
5	-2831
J	-2832
E	-2833
4	-2834
O	-2835
6	-2836
7	-2837
z	-2838
j	-2839
q	-2840
K	-2841
U	-2842
V	-2843
;	-2844
–	-2845
:	-2846
Y	-2847
/	-2848
—	-2849
Z	-2850
é	-2851
Q	-2852
$	-2853
%	-2854
]	-2855
[	-2856
X	-2857
&	-2858
á	-2859
’	-2860
!	-2861
í	-2862
°	-2863
ó	-2864
ā	-2865
£	-2866
?	-2867
ö	-2868
ō	-2869
<	-2870
>	-2871
+	-2872
−	-2873
ü	-2874
ä	-2875
ć	-2876
è	-2877
ʻ	-2878
š	-2879
#	-2880
ø	-2881
“	-2882
ī	-2883
*	-2884
”	-2885
⁄	-2886
ˈ	-2887
×	-2888
ū	-2889
ç	-2890
ł	-2891
μ	-2892
ñ	-2893
₹	-2894
ː	-2895
י	-2896
ã	-2897
ś	-2898
ú	-2899
ə	-2900
α	-2901
É	-2902
â	-2903
č	-2904
Æ	-2905
đ	-2906
ô	-2907
Ō	-2908
Ó	-2909
′	-2910
ה	-2911
א	-2912
ו	-2913
ο	-2914
→	-2915
κ	-2916
‘	-2917
à	-2918
ž	-2919
ν	-2920
ì	-2921
ש	-2922
ă	-2923
ń	-2924
~	-2925
å	-2926
θ	-2927
ב	-2928
ל	-2929
ר	-2930
の	-2931
ư	-2932
ɔ	-2933
π	-2934
ð	-2935
ς	-2936
æ	-2937
λ	-2938
ח	-2939
ا	-2940
Š	-2941
ρ	-2942
ּ	-2943
Í	-2944
ë	-2945
ơ	-2946
מ	-2947
^	-2948
Å	-2949
ת	-2950
∞	-2951
ε	-2952
τ	-2953
ɛ	-2954
ー	-2955
ი	-2956
ħ	-2957
ɪ	-2958
ʃ	-2959
ι	-2960
а	-2961
ָ	-2962
ل	-2963
☉	-2964
ı	-2965
ע	-2966
‐	-2967
§	-2968
ִ	-2969
〈	-2970
〉	-2971
ê	-2972
ş	-2973
β	-2974
≤	-2975
|	-2976
Â	-2977
ְ	-2978
ḥ	-2979
ʔ	-2980
о	-2981
ד	-2982
ル	-2983
Á	-2984
Ø	-2985
î	-2986
ē	-2987
е	-2988
ს	-2989
σ	-2990
с	-2991
ַ	-2992
נ	-2993
რ	-2994
ệ	-2995
ン	-2996
ï	-2997
Đ	-2998
ʕ	-2999
ֹ	-3000
ם	-3001
ე	-3002
⋅	-3003
い	-3004
δ	-3005
د	-3006
ṭ	-3007
♭	-3008
り	-3009
ス	-3010
ό	-3011
р	-3012
т	-3013
ן	-3014
פ	-3015
ن	-3016
ा	-3017
ร	-3018
ア	-3019
～	-3020
Ö	-3021
Ā	-3022
ɑ	-3023
ֶ	-3024
า	-3025
ễ	-3026
♯	-3027
Î	-3028
û	-3029
υ	-3030
ק	-3031
ა	-3032
ド	-3033
リ	-3034
¥	-3035
ɒ	-3036
ɡ	-3037
η	-3038
к	-3039
ֵ	-3040
כ	-3041
ხ	-3042
ỳ	-3043
し	-3044
ま	-3045
ッ	-3046
大	-3047
ė	-3048
ʼ	-3049
̆	-3050
χ	-3051
и	-3052
ิ	-3053
მ	-3054
უ	-3055
†	-3056
€	-3057
き	-3058
ά	-3059
ί	-3060
в	-3061
ז	-3062
ס	-3063
ه	-3064
ვ	-3065
ლ	-3066
ṣ	-3067
√	-3068
ィ	-3069
ラ	-3070
女	-3071
`	-3072
}	-3073
±	-3074
Ł	-3075
ʊ	-3076
γ	-3077
С	-3078
н	-3079
֫	-3080
و	-3081
ي	-3082
ก	-3083
ṃ	-3084
イ	-3085
ò	-3086
ą	-3087
ŋ	-3088
ȟ	-3089
л	-3090
ג	-3091
ح	-3092
ق	-3093
्	-3094
ว	-3095
อ	-3096
ั	-3097
ო	-3098
ქ	-3099
ᡝ	-3100
ṇ	-3101
お	-3102
さ	-3103
キ	-3104
ュ	-3105
・	-3106
伝	-3107
{	-3108
Ü	-3109
Þ	-3110
Č	-3111
ǝ	-3112
ɬ	-3113
ή	-3114
ب	-3115
ر	-3116
س	-3117
ش	-3118
م	-3119
ง	-3120
ย	-3121
დ	-3122
ტ	-3123
ṯ	-3124
ị	-3125
か	-3126
た	-3127
つ	-3128
エ	-3129
ク	-3130
シ	-3131
ト	-3132
火	-3133
牙	-3134
ù	-3135
ý	-3136
ğ	-3137
Œ	-3138
Ž	-3139
ʿ	-3140
ˌ	-3141
έ	-3142
ω	-3143
ץ	-3144
إ	-3145
ف	-3146
न	-3147
พ	-3148
เ	-3149
გ	-3150
ნ	-3151
ᵻ	-3152
ṅ	-3153
う	-3154
と	-3155
に	-3156
ウ	-3157
フ	-3158
ロ	-3159
人	-3160
州	-3161
戦	-3162
狐	-3163
神	-3164
空	-3165
説	-3166
銀	-3167
·	-3168
İ	-3169
Ż	-3170
̃	-3171
̊	-3172
Δ	-3173
ξ	-3174
й	-3175
ֲ	-3176
צ	-3177
ต	-3178
น	-3179
ล	-3180
้	-3181
წ	-3182
ả	-3183
ấ	-3184
ầ	-3185
ἀ	-3186
„	-3187
な	-3188
め	-3189
も	-3190
る	-3191
ん	-3192
テ	-3193
デ	-3194
動	-3195
周	-3196
姉	-3197
攻	-3198
日	-3199
機	-3200
殻	-3201
隊	-3202
þ	-3203
ţ	-3204
ʁ	-3205
ˁ	-3206
ύ	-3207
ώ	-3208
я	-3209
أ	-3210
ت	-3211
ع	-3212
ܐ	-3213
ब	-3214
ू	-3215
ม	-3216
่	-3217
ც	-3218
ჲ	-3219
჻	-3220
ớ	-3221
ὑ	-3222
ὶ	-3223
く	-3224
ば	-3225
ひ	-3226
わ	-3227
ァ	-3228
オ	-3229
ダ	-3230
ナ	-3231
光	-3232
場	-3233
張	-3234
礮	-3235
花	-3236
院	-3237
¡	-3238
Ú	-3239
ß	-3240
Ş	-3241
ů	-3242
ż	-3243
ș	-3244
ɐ	-3245
Θ	-3246
ψ	-3247
А	-3248
В	-3249
з	-3250
ъ	-3251
ׁ	-3252
ט	-3253
ص	-3254
ण	-3255
त	-3256
द	-3257
र	-3258
व	-3259
ि	-3260
ਅ	-3261
ਲ	-3262
ਹ	-3263
ี	-3264
์	-3265
თ	-3266
კ	-3267
ფ	-3268
ჯ	-3269
ჱ	-3270
ᠣ	-3271
ᡨ	-3272
ᡳ	-3273
Ḥ	-3274
ạ	-3275
ử	-3276
ἁ	-3277
₤	-3278
∗	-3279
あ	-3280
す	-3281
ち	-3282
っ	-3283
は	-3284
ふ	-3285
ら	-3286
れ	-3287
ォ	-3288
バ	-3289
ブ	-3290
ヴ	-3291
三	-3292
侗	-3293
劉	-3294
同	-3295
君	-3296
子	-3297
学	-3298
安	-3299
宗	-3300
定	-3301
家	-3302
山	-3303
李	-3304
歌	-3305
百	-3306
秀	-3307
金	-3308
\	-3309
¢	-3310
ę	-3311
œ	-3312
Ś	-3313
ų	-3314
ź	-3315
ǎ	-3316
ɾ	-3317
ʒ	-3318
Α	-3319
Τ	-3320
Χ	-3321
д	-3322
м	-3323
п	-3324
х	-3325
ц	-3326
ы	-3327
ю	-3328
֤	-3329
ֳ	-3330
ף	-3331
ई	-3332
क	-3333
ल	-3334
ह	-3335
จ	-3336
ช	-3337
ณ	-3338
แ	-3339
ზ	-3340
ძ	-3341
ჰ	-3342
ჳ	-3343
ჴ	-3344
ᠠ	-3345
ᡥ	-3346
ṛ	-3347
ắ	-3348
ọ	-3349
ἰ	-3350
ὰ	-3351
ὸ	-3352
が	-3353
ぐ	-3354
だ	-3355
て	-3356
ゆ	-3357
グ	-3358
ツ	-3359
プ	-3360
マ	-3361
レ	-3362
ワ	-3363
中	-3364
乙	-3365
処	-3366
原	-3367
名	-3368
吴	-3369
型	-3370
城	-3371
孟	-3372
岳	-3373
恋	-3374
應	-3375
技	-3376
春	-3377
月	-3378
泉	-3379
滿	-3380
王	-3381
砲	-3382
編	-3383
聖	-3384
蘄	-3385
記	-3386
雪	-3387
首	-3388
_	-3389
Ç	-3390
Ñ	-3391
Ē	-3392
Ĕ	-3393
ě	-3394
ĭ	-3395
ň	-3396
ő	-3397
ř	-3398
ũ	-3399
ț	-3400
ȯ	-3401
ɣ	-3402
ɫ	-3403
ʋ	-3404
ʾ	-3405
ˑ	-3406
́	-3407
̯	-3408
Β	-3409
Ε	-3410
Μ	-3411
Ν	-3412
Ο	-3413
Π	-3414
Σ	-3415
Ω	-3416
φ	-3417
К	-3418
П	-3419
Х	-3420
ш	-3421
ֱ	-3422
ة	-3423
ط	-3424
ك	-3425
ی	-3426
ܗ	-3427
ܠ	-3428
ܵ	-3429
अ	-3430
म	-3431
य	-3432
स	-3433
ল	-3434
ਾ	-3435
ੁ	-3436
ള	-3437
്	-3438
ค	-3439
ญ	-3440
ท	-3441
ธ	-3442
บ	-3443
ป	-3444
ษ	-3445
ส	-3446
ห	-3447
ะ	-3448
โ	-3449
ไ	-3450
პ	-3451
ყ	-3452
შ	-3453
ჭ	-3454
ჵ	-3455
ስ	-3456
ᠪ	-3457
ᠮ	-3458
ᠰ	-3459
ᡠ	-3460
ᡴ	-3461
ᡵ	-3462
ḍ	-3463
ḏ	-3464
Ḫ	-3465
ḷ	-3466
ậ	-3467
ỏ	-3468
ộ	-3469
ứ	-3470
Ἰ	-3471
ὀ	-3472
ὁ	-3473
ὐ	-3474
ῖ	-3475
ῶ	-3476
‍	-3477
‡	-3478
₣	-3479
∈	-3480
≠	-3481
≡	-3482
♥	-3483
〜	-3484
け	-3485
こ	-3486
ご	-3487
み	-3488
よ	-3489
を	-3490
ェ	-3491
ガ	-3492
ゲ	-3493
コ	-3494
サ	-3495
ジ	-3496
ズ	-3497
タ	-3498
チ	-3499
ニ	-3500
ネ	-3501
ハ	-3502
パ	-3503
ミ	-3504
一	-3505
世	-3506
主	-3507
九	-3508
二	-3509
云	-3510
今	-3511
代	-3512
体	-3513
典	-3514
再	-3515
出	-3516
判	-3517
剛	-3518
化	-3519
可	-3520
台	-3521
命	-3522
園	-3523
夕	-3524
天	-3525
太	-3526
夫	-3527
宮	-3528
師	-3529
後	-3530
御	-3531
战	-3532
抄	-3533
拉	-3534
揺	-3535
放	-3536
政	-3537
方	-3538
旭	-3539
明	-3540
星	-3541
景	-3542
村	-3543
柱	-3544
櫻	-3545
正	-3546
治	-3547
洲	-3548
澤	-3549
物	-3550
祭	-3551
義	-3552
興	-3553
英	-3554
藤	-3555
蘇	-3556
裁	-3557
覺	-3558
赤	-3559
跳	-3560
転	-3561
逆	-3562
運	-3563
邦	-3564
里	-3565
野	-3566
銃	-3567
陈	-3568
陳	-3569
陽	-3570
集	-3571
雲	-3572
霹	-3573
靂	-3574
音	-3575
願	-3576
風	-3577
风	-3578
鳥	-3579
대	-3580
	-3581
	-3582
¿	-3583
À	-3584
Ä	-3585
ď	-3586
ĕ	-3587
Ľ	-3588
ŏ	-3589
ű	-3590
ǔ	-3591
ǣ	-3592
Ǧ	-3593
Ș	-3594
ɜ	-3595
ɢ	-3596
ɭ	-3597
ɳ	-3598
ɽ	-3599
ʀ	-3600
ʂ	-3601
ʉ	-3602
ʌ	-3603
̍	-3604
̥	-3605
̩	-3606
͍	-3607
͡	-3608
Ά	-3609
Γ	-3610
Κ	-3611
Λ	-3612
Ξ	-3613
Υ	-3614
Φ	-3615
Ψ	-3616
ζ	-3617
Б	-3618
Г	-3619
Р	-3620
У	-3621
Я	-3622
г	-3623
ж	-3624
у	-3625
ч	-3626
ь	-3627
є	-3628
ֻ	-3629
ׂ	-3630
ء	-3631
ئ	-3632
ث	-3633
ج	-3634
خ	-3635
ذ	-3636
ٰ	-3637
ܕ	-3638
ܝ	-3639
ܢ	-3640
ܬ	-3641
ܲ	-3642
ं	-3643
ग	-3644
प	-3645
फ	-3646
़	-3647
ु	-3648
े	-3649
ै	-3650
আ	-3651
হ	-3652
া	-3653
্	-3654
ੱ	-3655
അ	-3656
ഹ	-3657
ാ	-3658
ฆ	-3659
ซ	-3660
ฐ	-3661
ด	-3662
ฟ	-3663
ภ	-3664
ศ	-3665
ฮ	-3666
ึ	-3667
ื	-3668
ุ	-3669
็	-3670
๊	-3671
ํ	-3672
Ⴀ	-3673
Ⴂ	-3674
Ⴃ	-3675
Ⴈ	-3676
Ⴌ	-3677
Ⴕ	-3678
Ⴟ	-3679
ბ	-3680
ჟ	-3681
ღ	-3682
ჩ	-3683
ჶ	-3684
ჷ	-3685
ჸ	-3686
ჹ	-3687
ჺ	-3688
ር	-3689
ቆ	-3690
ቈ	-3691
ብ	-3692
ቲ	-3693
ታ	-3694
ን	-3695
ኖ	-3696
አ	-3697
ዕ	-3698
ዘ	-3699
ያ	-3700
ᠨ	-3701
ᠯ	-3702
ᠴ	-3703
ᠵ	-3704
ᠸ	-3705
ỗ	-3706
ữ	-3707
ỹ	-3708
ἄ	-3709
Ἀ	-3710
ἐ	-3711
ἑ	-3712
ἦ	-3713
ἴ	-3714
ἵ	-3715
ἶ	-3716
ῆ	-3717
ῥ	-3718
ῦ	-3719
Ῥ	-3720
―	-3721
•	-3722
↑	-3723
∉	-3724
≪	-3725
⊕	-3726
⋆	-3727
☫	-3728
♀	-3729
⚳	-3730
、	-3731
。	-3732
ぎ	-3733
ず	-3734
ぜ	-3735
で	-3736
ど	-3737
へ	-3738
ほ	-3739
ぼ	-3740
ゃ	-3741
ょ	-3742
ゥ	-3743
カ	-3744
セ	-3745
ノ	-3746
ヘ	-3747
ベ	-3748
ボ	-3749
ム	-3750
モ	-3751
ャ	-3752
ョ	-3753
ヨ	-3754
七	-3755
下	-3756
丙	-3757
乃	-3758
之	-3759
事	-3760
京	-3761
付	-3762
份	-3763
佛	-3764
作	-3765
例	-3766
侍	-3767
依	-3768
信	-3769
傳	-3770
僕	-3771
儚	-3772
充	-3773
全	-3774
八	-3775
公	-3776
关	-3777
兵	-3778
其	-3779
具	-3780
円	-3781
冷	-3782
凤	-3783
凰	-3784
列	-3785
初	-3786
別	-3787
前	-3788
劇	-3789
勝	-3790
北	-3791
十	-3792
华	-3793
厂	-3794
去	-3795
取	-3796
古	-3797
史	-3798
司	-3799
吕	-3800
吳	-3801
和	-3802
咲	-3803
善	-3804
囁	-3805
囚	-3806
四	-3807
国	-3808
國	-3809
圣	-3810
在	-3811
坂	-3812
坤	-3813
堂	-3814
堤	-3815
塘	-3816
墙	-3817
士	-3818
外	-3819
妙	-3820
姚	-3821
姫	-3822
孛	-3823
宇	-3824
守	-3825
宋	-3826
完	-3827
宙	-3828
宝	-3829
宫	-3830
宴	-3831
寝	-3832
寧	-3833
寺	-3834
小	-3835
少	-3836
尾	-3837
局	-3838
川	-3839
巳	-3840
巴	-3841
市	-3842
平	-3843
幸	-3844
广	-3845
庆	-3846
府	-3847
度	-3848
座	-3849
廟	-3850
廬	-3851
建	-3852
式	-3853
彌	-3854
彦	-3855
彩	-3856
彼	-3857
德	-3858
応	-3859
思	-3860
恩	-3861
恵	-3862
愚	-3863
愛	-3864
憑	-3865
憶	-3866
懷	-3867
成	-3868
戰	-3869
房	-3870
扈	-3871
打	-3872
拘	-3873
拳	-3874
拾	-3875
挑	-3876
散	-3877
文	-3878
斗	-3879
斯	-3880
旦	-3881
旺	-3882
昌	-3883
晋	-3884
曦	-3885
有	-3886
望	-3887
未	-3888
本	-3889
杜	-3890
束	-3891
来	-3892
東	-3893
松	-3894
林	-3895
桜	-3896
梶	-3897
棘	-3898
椎	-3899
楊	-3900
楚	-3901
業	-3902
概	-3903
榮	-3904
橘	-3905
檻	-3906
欽	-3907
殿	-3908
母	-3909
毎	-3910
水	-3911
汉	-3912
江	-3913
沂	-3914
沙	-3915
河	-3916
泗	-3917
波	-3918
泣	-3919
洛	-3920
洪	-3921
浦	-3922
淹	-3923
清	-3924
湖	-3925
湯	-3926
溫	-3927
漢	-3928
澄	-3929
瀛	-3930
灯	-3931
灵	-3932
灼	-3933
為	-3934
焼	-3935
熊	-3936
熱	-3937
營	-3938
版	-3939
特	-3940
犬	-3941
狸	-3942
玄	-3943
玩	-3944
珂	-3945
珙	-3946
現	-3947
球	-3948
理	-3949
琦	-3950
琪	-3951
琴	-3952
瓊	-3953
生	-3954
田	-3955
画	-3956
留	-3957
畢	-3958
番	-3959
異	-3960
瘡	-3961
白	-3962
皮	-3963
真	-3964
祈	-3965
祖	-3966
祚	-3967
祠	-3968
禮	-3969
秋	-3970
秦	-3971
移	-3972
稚	-3973
窓	-3974
立	-3975
籠	-3976
精	-3977
約	-3978
紫	-3979
絵	-3980
織	-3981
绮	-3982
羅	-3983
羽	-3984
翔	-3985
翠	-3986
者	-3987
耕	-3988
肖	-3989
股	-3990
胡	-3991
胤	-3992
膀	-3993
臂	-3994
艦	-3995
良	-3996
芳	-3997
芽	-3998
苑	-3999
若	-4000
草	-4001
荊	-4002
薩	-4003
藕	-4004
藥	-4005
血	-4006
行	-4007
衛	-4008
西	-4009
規	-4010
观	-4011
解	-4012
詠	-4013
誓	-4014
語	-4015
誡	-4016
誰	-4017
謁	-4018
謎	-4019
许	-4020
谭	-4021
豪	-4022
豫	-4023
負	-4024
貴	-4025
費	-4026
贵	-4027
越	-4028
趙	-4029
足	-4030
跡	-4031
辛	-4032
近	-4033
送	-4034
遇	-4035
過	-4036
遠	-4037
選	-4038
遺	-4039
還	-4040
邱	-4041
郁	-4042
部	-4043
郭	-4044
都	-4045
酈	-4046
鋼	-4047
錄	-4048
錡	-4049
鍵	-4050
鐵	-4051
钱	-4052
铁	-4053
闘	-4054
關	-4055
闯	-4056
防	-4057
阿	-4058
限	-4059
陶	-4060
階	-4061
霖	-4062
韓	-4063
顯	-4064
颜	-4065
颱	-4066
館	-4067
香	-4068
馬	-4069
騎	-4070
马	-4071
高	-4072
鬪	-4073
魂	-4074
鶴	-4075
黄	-4076
黛	-4077
龍	-4078
독	-4079
라	-4080
립	-4081
병	-4082
보	-4083
부	-4084
산	-4085
알	-4086
연	-4087
운	-4088
전	-4089
제	-4090
투	-4091
